@0000 ff 00 00 00 00 00 00 00 00 00 00 00 00 00 00 00 00 00 00 00
@0001 fd 00 00 00 00 00 00 00 00 00 00 00 00 00 00 00 00 00 00 00
@0002 01 00 00 00 00 00 00 00 00 00 00 00 00 00 00 00 00 00 00 00
@0003 fd 00 00 00 00 00 00 00 00 00 00 00 00 00 00 00 00 00 00 00
@0004 03 00 00 00 00 00 00 00 00 00 00 00 00 00 00 00 00 00 00 00
@0005 03 00 00 00 00 00 00 00 00 00 00 00 00 00 00 00 00 00 00 00
@0006 03 00 00 00 00 00 00 00 00 00 00 00 00 00 00 00 00 00 00 00
@0007 fd 00 00 00 00 00 00 00 00 00 00 00 00 00 00 00 00 00 00 00
@0008 00 00 00 00 00 00 00 00 00 00 00 00 00 00 00 00 00 00 00 00
@0009 01 00 00 00 00 00 00 00 00 00 00 00 00 00 00 00 00 00 00 00
@000a 03 00 00 00 00 00 00 00 00 00 00 00 00 00 00 00 00 00 00 00
@000b ff 00 00 00 00 00 00 00 00 00 00 00 00 00 00 00 00 00 00 00
