@0000 01 00 00 00 00 00 00 00 00 00 00 00 00 00 00 00 00 00 00 00
@0001 03 00 00 00 00 00 00 00 00 00 00 00 00 00 00 00 00 00 00 00
@0002 02 00 00 00 00 00 00 00 00 00 00 00 00 00 00 00 00 00 00 00
@0003 02 00 00 00 00 00 00 00 00 00 00 00 00 00 00 00 00 00 00 00
@0004 03 00 00 00 00 00 00 00 00 00 00 00 00 00 00 00 00 00 00 00
@0005 ff 00 00 00 00 00 00 00 00 00 00 00 00 00 00 00 00 00 00 00
@0006 01 00 00 00 00 00 00 00 00 00 00 00 00 00 00 00 00 00 00 00
@0007 ff 00 00 00 00 00 00 00 00 00 00 00 00 00 00 00 00 00 00 00
@0008 03 00 00 00 00 00 00 00 00 00 00 00 00 00 00 00 00 00 00 00
@0009 01 00 00 00 00 00 00 00 00 00 00 00 00 00 00 00 00 00 00 00
@000a 03 00 00 00 00 00 00 00 00 00 00 00 00 00 00 00 00 00 00 00
@000b 03 00 00 00 00 00 00 00 00 00 00 00 00 00 00 00 00 00 00 00
