@0000 fe 00 00 00 00 00 00 00 00 00 00 00 00 00 00 00 00 00 00 00
@0001 03 00 00 00 00 00 00 00 00 00 00 00 00 00 00 00 00 00 00 00
@0002 03 00 00 00 00 00 00 00 00 00 00 00 00 00 00 00 00 00 00 00
@0003 fe 00 00 00 00 00 00 00 00 00 00 00 00 00 00 00 00 00 00 00
@0004 fe 00 00 00 00 00 00 00 00 00 00 00 00 00 00 00 00 00 00 00
@0005 00 00 00 00 00 00 00 00 00 00 00 00 00 00 00 00 00 00 00 00
@0006 01 00 00 00 00 00 00 00 00 00 00 00 00 00 00 00 00 00 00 00
@0007 00 00 00 00 00 00 00 00 00 00 00 00 00 00 00 00 00 00 00 00
@0008 02 00 00 00 00 00 00 00 00 00 00 00 00 00 00 00 00 00 00 00
@0009 01 00 00 00 00 00 00 00 00 00 00 00 00 00 00 00 00 00 00 00
@000a 00 00 00 00 00 00 00 00 00 00 00 00 00 00 00 00 00 00 00 00
@000b 01 00 00 00 00 00 00 00 00 00 00 00 00 00 00 00 00 00 00 00
