@0000 03 00 00 00 00 00 00 00 00 00 00 00 00 00 00 00 00 00 00 00
@0001 03 00 00 00 00 00 00 00 00 00 00 00 00 00 00 00 00 00 00 00
@0002 01 00 00 00 00 00 00 00 00 00 00 00 00 00 00 00 00 00 00 00
@0003 ff 00 00 00 00 00 00 00 00 00 00 00 00 00 00 00 00 00 00 00
@0004 01 00 00 00 00 00 00 00 00 00 00 00 00 00 00 00 00 00 00 00
@0005 02 00 00 00 00 00 00 00 00 00 00 00 00 00 00 00 00 00 00 00
@0006 fd 00 00 00 00 00 00 00 00 00 00 00 00 00 00 00 00 00 00 00
@0007 02 00 00 00 00 00 00 00 00 00 00 00 00 00 00 00 00 00 00 00
@0008 02 00 00 00 00 00 00 00 00 00 00 00 00 00 00 00 00 00 00 00
@0009 01 00 00 00 00 00 00 00 00 00 00 00 00 00 00 00 00 00 00 00
@000a 03 00 00 00 00 00 00 00 00 00 00 00 00 00 00 00 00 00 00 00
@000b 00 00 00 00 00 00 00 00 00 00 00 00 00 00 00 00 00 00 00 00
