@0000 01 00 00 00 00 00 00 00 00 00 00 00 00 00 00 00 00 00 00 00
@0001 fd 00 00 00 00 00 00 00 00 00 00 00 00 00 00 00 00 00 00 00
@0002 01 00 00 00 00 00 00 00 00 00 00 00 00 00 00 00 00 00 00 00
@0003 ff 00 00 00 00 00 00 00 00 00 00 00 00 00 00 00 00 00 00 00
@0004 00 00 00 00 00 00 00 00 00 00 00 00 00 00 00 00 00 00 00 00
@0005 fe 00 00 00 00 00 00 00 00 00 00 00 00 00 00 00 00 00 00 00
@0006 00 00 00 00 00 00 00 00 00 00 00 00 00 00 00 00 00 00 00 00
@0007 01 00 00 00 00 00 00 00 00 00 00 00 00 00 00 00 00 00 00 00
@0008 03 00 00 00 00 00 00 00 00 00 00 00 00 00 00 00 00 00 00 00
@0009 00 00 00 00 00 00 00 00 00 00 00 00 00 00 00 00 00 00 00 00
@000a fe 00 00 00 00 00 00 00 00 00 00 00 00 00 00 00 00 00 00 00
@000b fe 00 00 00 00 00 00 00 00 00 00 00 00 00 00 00 00 00 00 00
