@0000 02 00 00 00 00 00 00 00 00 00 00 00 00 00 00 00 00 00 00 00
@0001 01 00 00 00 00 00 00 00 00 00 00 00 00 00 00 00 00 00 00 00
@0002 03 00 00 00 00 00 00 00 00 00 00 00 00 00 00 00 00 00 00 00
@0003 fd 00 00 00 00 00 00 00 00 00 00 00 00 00 00 00 00 00 00 00
@0004 01 00 00 00 00 00 00 00 00 00 00 00 00 00 00 00 00 00 00 00
@0005 02 00 00 00 00 00 00 00 00 00 00 00 00 00 00 00 00 00 00 00
@0006 02 00 00 00 00 00 00 00 00 00 00 00 00 00 00 00 00 00 00 00
@0007 00 00 00 00 00 00 00 00 00 00 00 00 00 00 00 00 00 00 00 00
@0008 01 00 00 00 00 00 00 00 00 00 00 00 00 00 00 00 00 00 00 00
@0009 fd 00 00 00 00 00 00 00 00 00 00 00 00 00 00 00 00 00 00 00
@000a 02 00 00 00 00 00 00 00 00 00 00 00 00 00 00 00 00 00 00 00
@000b 02 00 00 00 00 00 00 00 00 00 00 00 00 00 00 00 00 00 00 00
