DC
DC
DC
DC
DC
DC
DC
DC
DC
DC
DC
DC
DC
DC
DC
DC
DC
DC
DC
DC
82
82
82
82
82
82
82
82
82
82
82
82
82
82
82
82
82
82
82
82
13
13
13
13
13
13
13
13
13
13
13
13
13
13
13
13
13
13
13
13
7B
7B
7B
7B
7B
7B
7B
7B
7B
7B
7B
7B
7B
7B
7B
7B
7B
7B
7B
7B
3A
3A
3A
3A
3A
3A
3A
3A
3A
3A
3A
3A
3A
3A
3A
3A
3A
3A
3A
3A
23
23
23
23
23
23
23
23
23
23
23
23
23
23
23
23
23
23
23
23
12
12
12
12
12
12
12
12
12
12
12
12
12
12
12
12
12
12
12
12
D9
D9
D9
D9
D9
D9
D9
D9
D9
D9
D9
D9
D9
D9
D9
D9
D9
D9
D9
D9
42
42
42
42
42
42
42
42
42
42
42
42
42
42
42
42
42
42
42
42
7E
7E
7E
7E
7E
7E
7E
7E
7E
7E
7E
7E
7E
7E
7E
7E
7E
7E
7E
7E
12
12
12
12
12
12
12
12
12
12
12
12
12
12
12
12
12
12
12
12
13
13
13
13
13
13
13
13
13
13
13
13
13
13
13
13
13
13
13
13
DF
DF
DF
DF
DF
DF
DF
DF
DF
DF
DF
DF
DF
DF
DF
DF
DF
DF
DF
DF
46
46
46
46
46
46
46
46
46
46
46
46
46
46
46
46
46
46
46
46
B3
B3
B3
B3
B3
B3
B3
B3
B3
B3
B3
B3
B3
B3
B3
B3
B3
B3
B3
B3
68
68
68
68
68
68
68
68
68
68
68
68
68
68
68
68
68
68
68
68
