@0000 ff 00 00 00 00 00 00 00 00 00 00 00 00 00 00 00 00 00 00 00
@0001 ff 00 00 00 00 00 00 00 00 00 00 00 00 00 00 00 00 00 00 00
@0002 fe 00 00 00 00 00 00 00 00 00 00 00 00 00 00 00 00 00 00 00
@0003 00 00 00 00 00 00 00 00 00 00 00 00 00 00 00 00 00 00 00 00
@0004 ff 00 00 00 00 00 00 00 00 00 00 00 00 00 00 00 00 00 00 00
@0005 fe 00 00 00 00 00 00 00 00 00 00 00 00 00 00 00 00 00 00 00
@0006 01 00 00 00 00 00 00 00 00 00 00 00 00 00 00 00 00 00 00 00
@0007 fe 00 00 00 00 00 00 00 00 00 00 00 00 00 00 00 00 00 00 00
@0008 01 00 00 00 00 00 00 00 00 00 00 00 00 00 00 00 00 00 00 00
@0009 ff 00 00 00 00 00 00 00 00 00 00 00 00 00 00 00 00 00 00 00
@000a 02 00 00 00 00 00 00 00 00 00 00 00 00 00 00 00 00 00 00 00
@000b ff 00 00 00 00 00 00 00 00 00 00 00 00 00 00 00 00 00 00 00
@000c 02 00 00 00 00 00 00 00 00 00 00 00 00 00 00 00 00 00 00 00
@000d fe 00 00 00 00 00 00 00 00 00 00 00 00 00 00 00 00 00 00 00
@000e 02 00 00 00 00 00 00 00 00 00 00 00 00 00 00 00 00 00 00 00
@000f 01 00 00 00 00 00 00 00 00 00 00 00 00 00 00 00 00 00 00 00
@0010 00 00 00 00 00 00 00 00 00 00 00 00 00 00 00 00 00 00 00 00
@0011 01 00 00 00 00 00 00 00 00 00 00 00 00 00 00 00 00 00 00 00
@0012 00 00 00 00 00 00 00 00 00 00 00 00 00 00 00 00 00 00 00 00
@0013 01 00 00 00 00 00 00 00 00 00 00 00 00 00 00 00 00 00 00 00
@0014 ff 00 00 00 00 00 00 00 00 00 00 00 00 00 00 00 00 00 00 00
@0015 02 00 00 00 00 00 00 00 00 00 00 00 00 00 00 00 00 00 00 00
@0016 fe 00 00 00 00 00 00 00 00 00 00 00 00 00 00 00 00 00 00 00
@0017 ff 00 00 00 00 00 00 00 00 00 00 00 00 00 00 00 00 00 00 00
