@0000 ff 00 00 00 00 00 00 00 00 00 00 00 00 00 00 00 00 00 00 00
@0001 00 00 00 00 00 00 00 00 00 00 00 00 00 00 00 00 00 00 00 00
@0002 ff 00 00 00 00 00 00 00 00 00 00 00 00 00 00 00 00 00 00 00
@0003 fe 00 00 00 00 00 00 00 00 00 00 00 00 00 00 00 00 00 00 00
@0004 fe 00 00 00 00 00 00 00 00 00 00 00 00 00 00 00 00 00 00 00
@0005 00 00 00 00 00 00 00 00 00 00 00 00 00 00 00 00 00 00 00 00
@0006 02 00 00 00 00 00 00 00 00 00 00 00 00 00 00 00 00 00 00 00
@0007 01 00 00 00 00 00 00 00 00 00 00 00 00 00 00 00 00 00 00 00
@0008 ff 00 00 00 00 00 00 00 00 00 00 00 00 00 00 00 00 00 00 00
@0009 00 00 00 00 00 00 00 00 00 00 00 00 00 00 00 00 00 00 00 00
@000a 01 00 00 00 00 00 00 00 00 00 00 00 00 00 00 00 00 00 00 00
@000b ff 00 00 00 00 00 00 00 00 00 00 00 00 00 00 00 00 00 00 00
@000c ff 00 00 00 00 00 00 00 00 00 00 00 00 00 00 00 00 00 00 00
@000d fe 00 00 00 00 00 00 00 00 00 00 00 00 00 00 00 00 00 00 00
@000e 01 00 00 00 00 00 00 00 00 00 00 00 00 00 00 00 00 00 00 00
@000f 01 00 00 00 00 00 00 00 00 00 00 00 00 00 00 00 00 00 00 00
@0010 01 00 00 00 00 00 00 00 00 00 00 00 00 00 00 00 00 00 00 00
@0011 01 00 00 00 00 00 00 00 00 00 00 00 00 00 00 00 00 00 00 00
@0012 02 00 00 00 00 00 00 00 00 00 00 00 00 00 00 00 00 00 00 00
@0013 ff 00 00 00 00 00 00 00 00 00 00 00 00 00 00 00 00 00 00 00
@0014 01 00 00 00 00 00 00 00 00 00 00 00 00 00 00 00 00 00 00 00
@0015 ff 00 00 00 00 00 00 00 00 00 00 00 00 00 00 00 00 00 00 00
@0016 02 00 00 00 00 00 00 00 00 00 00 00 00 00 00 00 00 00 00 00
@0017 ff 00 00 00 00 00 00 00 00 00 00 00 00 00 00 00 00 00 00 00
