@0000 ff 00 00 00 00 00 00 00 00 00 00 00 00 00 00 00 00 00 00 00
@0001 00 00 00 00 00 00 00 00 00 00 00 00 00 00 00 00 00 00 00 00
@0002 ff 00 00 00 00 00 00 00 00 00 00 00 00 00 00 00 00 00 00 00
@0003 02 00 00 00 00 00 00 00 00 00 00 00 00 00 00 00 00 00 00 00
@0004 ff 00 00 00 00 00 00 00 00 00 00 00 00 00 00 00 00 00 00 00
@0005 ff 00 00 00 00 00 00 00 00 00 00 00 00 00 00 00 00 00 00 00
@0006 fe 00 00 00 00 00 00 00 00 00 00 00 00 00 00 00 00 00 00 00
@0007 01 00 00 00 00 00 00 00 00 00 00 00 00 00 00 00 00 00 00 00
@0008 02 00 00 00 00 00 00 00 00 00 00 00 00 00 00 00 00 00 00 00
@0009 ff 00 00 00 00 00 00 00 00 00 00 00 00 00 00 00 00 00 00 00
@000a 00 00 00 00 00 00 00 00 00 00 00 00 00 00 00 00 00 00 00 00
@000b fe 00 00 00 00 00 00 00 00 00 00 00 00 00 00 00 00 00 00 00
@000c ff 00 00 00 00 00 00 00 00 00 00 00 00 00 00 00 00 00 00 00
@000d 00 00 00 00 00 00 00 00 00 00 00 00 00 00 00 00 00 00 00 00
@000e 01 00 00 00 00 00 00 00 00 00 00 00 00 00 00 00 00 00 00 00
@000f 02 00 00 00 00 00 00 00 00 00 00 00 00 00 00 00 00 00 00 00
@0010 01 00 00 00 00 00 00 00 00 00 00 00 00 00 00 00 00 00 00 00
@0011 02 00 00 00 00 00 00 00 00 00 00 00 00 00 00 00 00 00 00 00
@0012 ff 00 00 00 00 00 00 00 00 00 00 00 00 00 00 00 00 00 00 00
@0013 00 00 00 00 00 00 00 00 00 00 00 00 00 00 00 00 00 00 00 00
@0014 fe 00 00 00 00 00 00 00 00 00 00 00 00 00 00 00 00 00 00 00
@0015 02 00 00 00 00 00 00 00 00 00 00 00 00 00 00 00 00 00 00 00
@0016 fe 00 00 00 00 00 00 00 00 00 00 00 00 00 00 00 00 00 00 00
@0017 01 00 00 00 00 00 00 00 00 00 00 00 00 00 00 00 00 00 00 00
