@0000 ff 00 00 00 00 00 00 00 00 00 00 00 00 00 00 00 00 00 00 00
@0001 fd 00 00 00 00 00 00 00 00 00 00 00 00 00 00 00 00 00 00 00
@0002 fd 00 00 00 00 00 00 00 00 00 00 00 00 00 00 00 00 00 00 00
@0003 00 00 00 00 00 00 00 00 00 00 00 00 00 00 00 00 00 00 00 00
@0004 00 00 00 00 00 00 00 00 00 00 00 00 00 00 00 00 00 00 00 00
@0005 02 00 00 00 00 00 00 00 00 00 00 00 00 00 00 00 00 00 00 00
@0006 01 00 00 00 00 00 00 00 00 00 00 00 00 00 00 00 00 00 00 00
@0007 02 00 00 00 00 00 00 00 00 00 00 00 00 00 00 00 00 00 00 00
@0008 01 00 00 00 00 00 00 00 00 00 00 00 00 00 00 00 00 00 00 00
@0009 02 00 00 00 00 00 00 00 00 00 00 00 00 00 00 00 00 00 00 00
@000a ff 00 00 00 00 00 00 00 00 00 00 00 00 00 00 00 00 00 00 00
@000b 00 00 00 00 00 00 00 00 00 00 00 00 00 00 00 00 00 00 00 00
@000c fd 00 00 00 00 00 00 00 00 00 00 00 00 00 00 00 00 00 00 00
@000d 01 00 00 00 00 00 00 00 00 00 00 00 00 00 00 00 00 00 00 00
@000e 01 00 00 00 00 00 00 00 00 00 00 00 00 00 00 00 00 00 00 00
@000f fd 00 00 00 00 00 00 00 00 00 00 00 00 00 00 00 00 00 00 00
@0010 02 00 00 00 00 00 00 00 00 00 00 00 00 00 00 00 00 00 00 00
@0011 01 00 00 00 00 00 00 00 00 00 00 00 00 00 00 00 00 00 00 00
@0012 03 00 00 00 00 00 00 00 00 00 00 00 00 00 00 00 00 00 00 00
@0013 ff 00 00 00 00 00 00 00 00 00 00 00 00 00 00 00 00 00 00 00
@0014 00 00 00 00 00 00 00 00 00 00 00 00 00 00 00 00 00 00 00 00
@0015 fd 00 00 00 00 00 00 00 00 00 00 00 00 00 00 00 00 00 00 00
@0016 00 00 00 00 00 00 00 00 00 00 00 00 00 00 00 00 00 00 00 00
@0017 03 00 00 00 00 00 00 00 00 00 00 00 00 00 00 00 00 00 00 00
@0018 01 00 00 00 00 00 00 00 00 00 00 00 00 00 00 00 00 00 00 00
@0019 01 00 00 00 00 00 00 00 00 00 00 00 00 00 00 00 00 00 00 00
@001a 03 00 00 00 00 00 00 00 00 00 00 00 00 00 00 00 00 00 00 00
@001b fd 00 00 00 00 00 00 00 00 00 00 00 00 00 00 00 00 00 00 00
@001c ff 00 00 00 00 00 00 00 00 00 00 00 00 00 00 00 00 00 00 00
@001d fe 00 00 00 00 00 00 00 00 00 00 00 00 00 00 00 00 00 00 00
@001e fd 00 00 00 00 00 00 00 00 00 00 00 00 00 00 00 00 00 00 00
@001f fe 00 00 00 00 00 00 00 00 00 00 00 00 00 00 00 00 00 00 00
