C8
C8
C8
C8
C8
C8
C8
C8
C8
C8
C8
C8
C8
C8
C8
C8
C8
C8
C8
C8
26
26
26
26
26
26
26
26
26
26
26
26
26
26
26
26
26
26
26
26
91
91
91
91
91
91
91
91
91
91
91
91
91
91
91
91
91
91
91
91
88
88
88
88
88
88
88
88
88
88
88
88
88
88
88
88
88
88
88
88
D9
D9
D9
D9
D9
D9
D9
D9
D9
D9
D9
D9
D9
D9
D9
D9
D9
D9
D9
D9
B4
B4
B4
B4
B4
B4
B4
B4
B4
B4
B4
B4
B4
B4
B4
B4
B4
B4
B4
B4
2B
2B
2B
2B
2B
2B
2B
2B
2B
2B
2B
2B
2B
2B
2B
2B
2B
2B
2B
2B
7C
7C
7C
7C
7C
7C
7C
7C
7C
7C
7C
7C
7C
7C
7C
7C
7C
7C
7C
7C
87
87
87
87
87
87
87
87
87
87
87
87
87
87
87
87
87
87
87
87
E7
E7
E7
E7
E7
E7
E7
E7
E7
E7
E7
E7
E7
E7
E7
E7
E7
E7
E7
E7
03
03
03
03
03
03
03
03
03
03
03
03
03
03
03
03
03
03
03
03
81
81
81
81
81
81
81
81
81
81
81
81
81
81
81
81
81
81
81
81
