B2
B2
B2
B2
B2
B2
B2
B2
B2
B2
B2
B2
B2
B2
B2
B2
B2
B2
B2
B2
06
06
06
06
06
06
06
06
06
06
06
06
06
06
06
06
06
06
06
06
94
94
94
94
94
94
94
94
94
94
94
94
94
94
94
94
94
94
94
94
8D
8D
8D
8D
8D
8D
8D
8D
8D
8D
8D
8D
8D
8D
8D
8D
8D
8D
8D
8D
71
71
71
71
71
71
71
71
71
71
71
71
71
71
71
71
71
71
71
71
79
79
79
79
79
79
79
79
79
79
79
79
79
79
79
79
79
79
79
79
EE
EE
EE
EE
EE
EE
EE
EE
EE
EE
EE
EE
EE
EE
EE
EE
EE
EE
EE
EE
3B
3B
3B
3B
3B
3B
3B
3B
3B
3B
3B
3B
3B
3B
3B
3B
3B
3B
3B
3B
46
46
46
46
46
46
46
46
46
46
46
46
46
46
46
46
46
46
46
46
D0
D0
D0
D0
D0
D0
D0
D0
D0
D0
D0
D0
D0
D0
D0
D0
D0
D0
D0
D0
23
23
23
23
23
23
23
23
23
23
23
23
23
23
23
23
23
23
23
23
B1
B1
B1
B1
B1
B1
B1
B1
B1
B1
B1
B1
B1
B1
B1
B1
B1
B1
B1
B1
