03
03
03
03
03
03
03
03
03
03
03
03
03
03
03
03
03
03
03
03
D8
D8
D8
D8
D8
D8
D8
D8
D8
D8
D8
D8
D8
D8
D8
D8
D8
D8
D8
D8
BB
BB
BB
BB
BB
BB
BB
BB
BB
BB
BB
BB
BB
BB
BB
BB
BB
BB
BB
BB
01
01
01
01
01
01
01
01
01
01
01
01
01
01
01
01
01
01
01
01
D3
D3
D3
D3
D3
D3
D3
D3
D3
D3
D3
D3
D3
D3
D3
D3
D3
D3
D3
D3
DB
DB
DB
DB
DB
DB
DB
DB
DB
DB
DB
DB
DB
DB
DB
DB
DB
DB
DB
DB
2E
2E
2E
2E
2E
2E
2E
2E
2E
2E
2E
2E
2E
2E
2E
2E
2E
2E
2E
2E
A2
A2
A2
A2
A2
A2
A2
A2
A2
A2
A2
A2
A2
A2
A2
A2
A2
A2
A2
A2
4D
4D
4D
4D
4D
4D
4D
4D
4D
4D
4D
4D
4D
4D
4D
4D
4D
4D
4D
4D
7D
7D
7D
7D
7D
7D
7D
7D
7D
7D
7D
7D
7D
7D
7D
7D
7D
7D
7D
7D
05
05
05
05
05
05
05
05
05
05
05
05
05
05
05
05
05
05
05
05
B5
B5
B5
B5
B5
B5
B5
B5
B5
B5
B5
B5
B5
B5
B5
B5
B5
B5
B5
B5
