B4
B4
B4
B4
B4
B4
B4
B4
B4
B4
B4
B4
B4
B4
B4
B4
B4
B4
B4
B4
BB
BB
BB
BB
BB
BB
BB
BB
BB
BB
BB
BB
BB
BB
BB
BB
BB
BB
BB
BB
6B
6B
6B
6B
6B
6B
6B
6B
6B
6B
6B
6B
6B
6B
6B
6B
6B
6B
6B
6B
5F
5F
5F
5F
5F
5F
5F
5F
5F
5F
5F
5F
5F
5F
5F
5F
5F
5F
5F
5F
F3
F3
F3
F3
F3
F3
F3
F3
F3
F3
F3
F3
F3
F3
F3
F3
F3
F3
F3
F3
DD
DD
DD
DD
DD
DD
DD
DD
DD
DD
DD
DD
DD
DD
DD
DD
DD
DD
DD
DD
8C
8C
8C
8C
8C
8C
8C
8C
8C
8C
8C
8C
8C
8C
8C
8C
8C
8C
8C
8C
F1
F1
F1
F1
F1
F1
F1
F1
F1
F1
F1
F1
F1
F1
F1
F1
F1
F1
F1
F1
FB
FB
FB
FB
FB
FB
FB
FB
FB
FB
FB
FB
FB
FB
FB
FB
FB
FB
FB
FB
92
92
92
92
92
92
92
92
92
92
92
92
92
92
92
92
92
92
92
92
DB
DB
DB
DB
DB
DB
DB
DB
DB
DB
DB
DB
DB
DB
DB
DB
DB
DB
DB
DB
B9
B9
B9
B9
B9
B9
B9
B9
B9
B9
B9
B9
B9
B9
B9
B9
B9
B9
B9
B9
