43
43
43
43
43
43
43
43
43
43
43
43
43
43
43
43
43
43
43
43
85
85
85
85
85
85
85
85
85
85
85
85
85
85
85
85
85
85
85
85
EC
EC
EC
EC
EC
EC
EC
EC
EC
EC
EC
EC
EC
EC
EC
EC
EC
EC
EC
EC
27
27
27
27
27
27
27
27
27
27
27
27
27
27
27
27
27
27
27
27
B3
B3
B3
B3
B3
B3
B3
B3
B3
B3
B3
B3
B3
B3
B3
B3
B3
B3
B3
B3
0F
0F
0F
0F
0F
0F
0F
0F
0F
0F
0F
0F
0F
0F
0F
0F
0F
0F
0F
0F
10
10
10
10
10
10
10
10
10
10
10
10
10
10
10
10
10
10
10
10
F7
F7
F7
F7
F7
F7
F7
F7
F7
F7
F7
F7
F7
F7
F7
F7
F7
F7
F7
F7
BE
BE
BE
BE
BE
BE
BE
BE
BE
BE
BE
BE
BE
BE
BE
BE
BE
BE
BE
BE
59
59
59
59
59
59
59
59
59
59
59
59
59
59
59
59
59
59
59
59
F4
F4
F4
F4
F4
F4
F4
F4
F4
F4
F4
F4
F4
F4
F4
F4
F4
F4
F4
F4
BD
BD
BD
BD
BD
BD
BD
BD
BD
BD
BD
BD
BD
BD
BD
BD
BD
BD
BD
BD
