EB
EB
EB
EB
EB
EB
EB
EB
EB
EB
EB
EB
EB
EB
EB
EB
EB
EB
EB
EB
84
84
84
84
84
84
84
84
84
84
84
84
84
84
84
84
84
84
84
84
E6
E6
E6
E6
E6
E6
E6
E6
E6
E6
E6
E6
E6
E6
E6
E6
E6
E6
E6
E6
AE
AE
AE
AE
AE
AE
AE
AE
AE
AE
AE
AE
AE
AE
AE
AE
AE
AE
AE
AE
E2
E2
E2
E2
E2
E2
E2
E2
E2
E2
E2
E2
E2
E2
E2
E2
E2
E2
E2
E2
B6
B6
B6
B6
B6
B6
B6
B6
B6
B6
B6
B6
B6
B6
B6
B6
B6
B6
B6
B6
E9
E9
E9
E9
E9
E9
E9
E9
E9
E9
E9
E9
E9
E9
E9
E9
E9
E9
E9
E9
1D
1D
1D
1D
1D
1D
1D
1D
1D
1D
1D
1D
1D
1D
1D
1D
1D
1D
1D
1D
12
12
12
12
12
12
12
12
12
12
12
12
12
12
12
12
12
12
12
12
36
36
36
36
36
36
36
36
36
36
36
36
36
36
36
36
36
36
36
36
D9
D9
D9
D9
D9
D9
D9
D9
D9
D9
D9
D9
D9
D9
D9
D9
D9
D9
D9
D9
64
64
64
64
64
64
64
64
64
64
64
64
64
64
64
64
64
64
64
64
