@0000 02 00 00 00 00 00 00 00 00 00 00 00 00 00 00 00 00 00 00 00
@0001 01 00 00 00 00 00 00 00 00 00 00 00 00 00 00 00 00 00 00 00
@0002 02 00 00 00 00 00 00 00 00 00 00 00 00 00 00 00 00 00 00 00
@0003 02 00 00 00 00 00 00 00 00 00 00 00 00 00 00 00 00 00 00 00
@0004 00 00 00 00 00 00 00 00 00 00 00 00 00 00 00 00 00 00 00 00
@0005 02 00 00 00 00 00 00 00 00 00 00 00 00 00 00 00 00 00 00 00
@0006 ff 00 00 00 00 00 00 00 00 00 00 00 00 00 00 00 00 00 00 00
@0007 fe 00 00 00 00 00 00 00 00 00 00 00 00 00 00 00 00 00 00 00
@0008 00 00 00 00 00 00 00 00 00 00 00 00 00 00 00 00 00 00 00 00
@0009 02 00 00 00 00 00 00 00 00 00 00 00 00 00 00 00 00 00 00 00
@000a 02 00 00 00 00 00 00 00 00 00 00 00 00 00 00 00 00 00 00 00
@000b 01 00 00 00 00 00 00 00 00 00 00 00 00 00 00 00 00 00 00 00
@000c fe 00 00 00 00 00 00 00 00 00 00 00 00 00 00 00 00 00 00 00
@000d fe 00 00 00 00 00 00 00 00 00 00 00 00 00 00 00 00 00 00 00
@000e 01 00 00 00 00 00 00 00 00 00 00 00 00 00 00 00 00 00 00 00
@000f 01 00 00 00 00 00 00 00 00 00 00 00 00 00 00 00 00 00 00 00
@0010 02 00 00 00 00 00 00 00 00 00 00 00 00 00 00 00 00 00 00 00
@0011 ff 00 00 00 00 00 00 00 00 00 00 00 00 00 00 00 00 00 00 00
@0012 02 00 00 00 00 00 00 00 00 00 00 00 00 00 00 00 00 00 00 00
@0013 ff 00 00 00 00 00 00 00 00 00 00 00 00 00 00 00 00 00 00 00
@0014 02 00 00 00 00 00 00 00 00 00 00 00 00 00 00 00 00 00 00 00
@0015 ff 00 00 00 00 00 00 00 00 00 00 00 00 00 00 00 00 00 00 00
@0016 01 00 00 00 00 00 00 00 00 00 00 00 00 00 00 00 00 00 00 00
@0017 fe 00 00 00 00 00 00 00 00 00 00 00 00 00 00 00 00 00 00 00
@0018 fe 00 00 00 00 00 00 00 00 00 00 00 00 00 00 00 00 00 00 00
@0019 00 00 00 00 00 00 00 00 00 00 00 00 00 00 00 00 00 00 00 00
@001a 02 00 00 00 00 00 00 00 00 00 00 00 00 00 00 00 00 00 00 00
@001b 01 00 00 00 00 00 00 00 00 00 00 00 00 00 00 00 00 00 00 00
