@0000 00 00 00 00 00 00 00 00 00 00 00 00 00 00 00 00 00 00 00 00
@0001 02 00 00 00 00 00 00 00 00 00 00 00 00 00 00 00 00 00 00 00
@0002 fe 00 00 00 00 00 00 00 00 00 00 00 00 00 00 00 00 00 00 00
@0003 ff 00 00 00 00 00 00 00 00 00 00 00 00 00 00 00 00 00 00 00
@0004 ff 00 00 00 00 00 00 00 00 00 00 00 00 00 00 00 00 00 00 00
@0005 ff 00 00 00 00 00 00 00 00 00 00 00 00 00 00 00 00 00 00 00
@0006 00 00 00 00 00 00 00 00 00 00 00 00 00 00 00 00 00 00 00 00
@0007 ff 00 00 00 00 00 00 00 00 00 00 00 00 00 00 00 00 00 00 00
@0008 01 00 00 00 00 00 00 00 00 00 00 00 00 00 00 00 00 00 00 00
@0009 ff 00 00 00 00 00 00 00 00 00 00 00 00 00 00 00 00 00 00 00
@000a ff 00 00 00 00 00 00 00 00 00 00 00 00 00 00 00 00 00 00 00
@000b ff 00 00 00 00 00 00 00 00 00 00 00 00 00 00 00 00 00 00 00
@000c 00 00 00 00 00 00 00 00 00 00 00 00 00 00 00 00 00 00 00 00
@000d 00 00 00 00 00 00 00 00 00 00 00 00 00 00 00 00 00 00 00 00
@000e 00 00 00 00 00 00 00 00 00 00 00 00 00 00 00 00 00 00 00 00
@000f 00 00 00 00 00 00 00 00 00 00 00 00 00 00 00 00 00 00 00 00
@0010 00 00 00 00 00 00 00 00 00 00 00 00 00 00 00 00 00 00 00 00
@0011 00 00 00 00 00 00 00 00 00 00 00 00 00 00 00 00 00 00 00 00
@0012 fe 00 00 00 00 00 00 00 00 00 00 00 00 00 00 00 00 00 00 00
@0013 00 00 00 00 00 00 00 00 00 00 00 00 00 00 00 00 00 00 00 00
@0014 01 00 00 00 00 00 00 00 00 00 00 00 00 00 00 00 00 00 00 00
@0015 ff 00 00 00 00 00 00 00 00 00 00 00 00 00 00 00 00 00 00 00
@0016 01 00 00 00 00 00 00 00 00 00 00 00 00 00 00 00 00 00 00 00
@0017 ff 00 00 00 00 00 00 00 00 00 00 00 00 00 00 00 00 00 00 00
@0018 02 00 00 00 00 00 00 00 00 00 00 00 00 00 00 00 00 00 00 00
@0019 ff 00 00 00 00 00 00 00 00 00 00 00 00 00 00 00 00 00 00 00
@001a 00 00 00 00 00 00 00 00 00 00 00 00 00 00 00 00 00 00 00 00
@001b 00 00 00 00 00 00 00 00 00 00 00 00 00 00 00 00 00 00 00 00
