@0000 02 00 00 00 00 00 00 00 00 00 00 00 00 00 00 00 00 00 00 00
@0001 02 00 00 00 00 00 00 00 00 00 00 00 00 00 00 00 00 00 00 00
@0002 fe 00 00 00 00 00 00 00 00 00 00 00 00 00 00 00 00 00 00 00
@0003 fe 00 00 00 00 00 00 00 00 00 00 00 00 00 00 00 00 00 00 00
@0004 ff 00 00 00 00 00 00 00 00 00 00 00 00 00 00 00 00 00 00 00
@0005 fe 00 00 00 00 00 00 00 00 00 00 00 00 00 00 00 00 00 00 00
@0006 00 00 00 00 00 00 00 00 00 00 00 00 00 00 00 00 00 00 00 00
@0007 ff 00 00 00 00 00 00 00 00 00 00 00 00 00 00 00 00 00 00 00
@0008 01 00 00 00 00 00 00 00 00 00 00 00 00 00 00 00 00 00 00 00
@0009 fe 00 00 00 00 00 00 00 00 00 00 00 00 00 00 00 00 00 00 00
@000a 01 00 00 00 00 00 00 00 00 00 00 00 00 00 00 00 00 00 00 00
@000b 02 00 00 00 00 00 00 00 00 00 00 00 00 00 00 00 00 00 00 00
@000c 00 00 00 00 00 00 00 00 00 00 00 00 00 00 00 00 00 00 00 00
@000d fe 00 00 00 00 00 00 00 00 00 00 00 00 00 00 00 00 00 00 00
@000e 01 00 00 00 00 00 00 00 00 00 00 00 00 00 00 00 00 00 00 00
@000f fe 00 00 00 00 00 00 00 00 00 00 00 00 00 00 00 00 00 00 00
@0010 00 00 00 00 00 00 00 00 00 00 00 00 00 00 00 00 00 00 00 00
@0011 00 00 00 00 00 00 00 00 00 00 00 00 00 00 00 00 00 00 00 00
@0012 00 00 00 00 00 00 00 00 00 00 00 00 00 00 00 00 00 00 00 00
@0013 02 00 00 00 00 00 00 00 00 00 00 00 00 00 00 00 00 00 00 00
@0014 ff 00 00 00 00 00 00 00 00 00 00 00 00 00 00 00 00 00 00 00
@0015 00 00 00 00 00 00 00 00 00 00 00 00 00 00 00 00 00 00 00 00
@0016 00 00 00 00 00 00 00 00 00 00 00 00 00 00 00 00 00 00 00 00
@0017 01 00 00 00 00 00 00 00 00 00 00 00 00 00 00 00 00 00 00 00
@0018 02 00 00 00 00 00 00 00 00 00 00 00 00 00 00 00 00 00 00 00
@0019 ff 00 00 00 00 00 00 00 00 00 00 00 00 00 00 00 00 00 00 00
@001a ff 00 00 00 00 00 00 00 00 00 00 00 00 00 00 00 00 00 00 00
@001b 00 00 00 00 00 00 00 00 00 00 00 00 00 00 00 00 00 00 00 00
