@0000 05 00 00 00 00 00 00 00 00 00 00 00 00 00 00 00 00 00 00 00
@0001 03 00 00 00 00 00 00 00 00 00 00 00 00 00 00 00 00 00 00 00
@0002 ff 00 00 00 00 00 00 00 00 00 00 00 00 00 00 00 00 00 00 00
@0003 fb 00 00 00 00 00 00 00 00 00 00 00 00 00 00 00 00 00 00 00
@0004 fd 00 00 00 00 00 00 00 00 00 00 00 00 00 00 00 00 00 00 00
@0005 04 00 00 00 00 00 00 00 00 00 00 00 00 00 00 00 00 00 00 00
@0006 02 00 00 00 00 00 00 00 00 00 00 00 00 00 00 00 00 00 00 00
@0007 05 00 00 00 00 00 00 00 00 00 00 00 00 00 00 00 00 00 00 00
@0008 00 00 00 00 00 00 00 00 00 00 00 00 00 00 00 00 00 00 00 00
@0009 02 00 00 00 00 00 00 00 00 00 00 00 00 00 00 00 00 00 00 00
@000a 03 00 00 00 00 00 00 00 00 00 00 00 00 00 00 00 00 00 00 00
@000b fe 00 00 00 00 00 00 00 00 00 00 00 00 00 00 00 00 00 00 00
@000c fb 00 00 00 00 00 00 00 00 00 00 00 00 00 00 00 00 00 00 00
@000d fb 00 00 00 00 00 00 00 00 00 00 00 00 00 00 00 00 00 00 00
@000e 04 00 00 00 00 00 00 00 00 00 00 00 00 00 00 00 00 00 00 00
@000f fe 00 00 00 00 00 00 00 00 00 00 00 00 00 00 00 00 00 00 00
